const unsigned char trained_onnx[] = {
  0x08, 0x04, 0x12, 0x07, 0x74, 0x66, 0x32, 0x6f, 0x6e, 0x6e, 0x78, 0x1a,
  0x05, 0x31, 0x2e, 0x39, 0x2e, 0x32, 0x3a, 0xa5, 0x2c, 0x0a, 0xa2, 0x02,
  0x0a, 0x01, 0x78, 0x0a, 0x40, 0x53, 0x74, 0x61, 0x74, 0x65, 0x66, 0x75,
  0x6c, 0x50, 0x61, 0x72, 0x74, 0x69, 0x74, 0x69, 0x6f, 0x6e, 0x65, 0x64,
  0x43, 0x61, 0x6c, 0x6c, 0x2f, 0x73, 0x65, 0x71, 0x75, 0x65, 0x6e, 0x74,
  0x69, 0x61, 0x6c, 0x2f, 0x64, 0x65, 0x6e, 0x73, 0x65, 0x2f, 0x4d, 0x61,
  0x74, 0x4d, 0x75, 0x6c, 0x2f, 0x52, 0x65, 0x61, 0x64, 0x56, 0x61, 0x72,
  0x69, 0x61, 0x62, 0x6c, 0x65, 0x4f, 0x70, 0x3a, 0x30, 0x0a, 0x41, 0x53,
  0x74, 0x61, 0x74, 0x65, 0x66, 0x75, 0x6c, 0x50, 0x61, 0x72, 0x74, 0x69,
  0x74, 0x69, 0x6f, 0x6e, 0x65, 0x64, 0x43, 0x61, 0x6c, 0x6c, 0x2f, 0x73,
  0x65, 0x71, 0x75, 0x65, 0x6e, 0x74, 0x69, 0x61, 0x6c, 0x2f, 0x64, 0x65,
  0x6e, 0x73, 0x65, 0x2f, 0x42, 0x69, 0x61, 0x73, 0x41, 0x64, 0x64, 0x2f,
  0x52, 0x65, 0x61, 0x64, 0x56, 0x61, 0x72, 0x69, 0x61, 0x62, 0x6c, 0x65,
  0x4f, 0x70, 0x3a, 0x30, 0x12, 0x39, 0x53, 0x74, 0x61, 0x74, 0x65, 0x66,
  0x75, 0x6c, 0x50, 0x61, 0x72, 0x74, 0x69, 0x74, 0x69, 0x6f, 0x6e, 0x65,
  0x64, 0x43, 0x61, 0x6c, 0x6c, 0x2f, 0x73, 0x65, 0x71, 0x75, 0x65, 0x6e,
  0x74, 0x69, 0x61, 0x6c, 0x2f, 0x64, 0x65, 0x6e, 0x73, 0x65, 0x2f, 0x4d,
  0x61, 0x74, 0x4d, 0x75, 0x6c, 0x5f, 0x47, 0x65, 0x6d, 0x6d, 0x5f, 0x5f,
  0x36, 0x3a, 0x30, 0x1a, 0x37, 0x53, 0x74, 0x61, 0x74, 0x65, 0x66, 0x75,
  0x6c, 0x50, 0x61, 0x72, 0x74, 0x69, 0x74, 0x69, 0x6f, 0x6e, 0x65, 0x64,
  0x43, 0x61, 0x6c, 0x6c, 0x2f, 0x73, 0x65, 0x71, 0x75, 0x65, 0x6e, 0x74,
  0x69, 0x61, 0x6c, 0x2f, 0x64, 0x65, 0x6e, 0x73, 0x65, 0x2f, 0x4d, 0x61,
  0x74, 0x4d, 0x75, 0x6c, 0x5f, 0x47, 0x65, 0x6d, 0x6d, 0x5f, 0x5f, 0x36,
  0x22, 0x04, 0x47, 0x65, 0x6d, 0x6d, 0x2a, 0x0d, 0x0a, 0x06, 0x74, 0x72,
  0x61, 0x6e, 0x73, 0x41, 0x18, 0x00, 0xa0, 0x01, 0x02, 0x2a, 0x0d, 0x0a,
  0x06, 0x74, 0x72, 0x61, 0x6e, 0x73, 0x42, 0x18, 0x00, 0xa0, 0x01, 0x02,
  0x3a, 0x00, 0x0a, 0xa1, 0x01, 0x0a, 0x39, 0x53, 0x74, 0x61, 0x74, 0x65,
  0x66, 0x75, 0x6c, 0x50, 0x61, 0x72, 0x74, 0x69, 0x74, 0x69, 0x6f, 0x6e,
  0x65, 0x64, 0x43, 0x61, 0x6c, 0x6c, 0x2f, 0x73, 0x65, 0x71, 0x75, 0x65,
  0x6e, 0x74, 0x69, 0x61, 0x6c, 0x2f, 0x64, 0x65, 0x6e, 0x73, 0x65, 0x2f,
  0x4d, 0x61, 0x74, 0x4d, 0x75, 0x6c, 0x5f, 0x47, 0x65, 0x6d, 0x6d, 0x5f,
  0x5f, 0x36, 0x3a, 0x30, 0x12, 0x2f, 0x53, 0x74, 0x61, 0x74, 0x65, 0x66,
  0x75, 0x6c, 0x50, 0x61, 0x72, 0x74, 0x69, 0x74, 0x69, 0x6f, 0x6e, 0x65,
  0x64, 0x43, 0x61, 0x6c, 0x6c, 0x2f, 0x73, 0x65, 0x71, 0x75, 0x65, 0x6e,
  0x74, 0x69, 0x61, 0x6c, 0x2f, 0x64, 0x65, 0x6e, 0x73, 0x65, 0x2f, 0x52,
  0x65, 0x6c, 0x75, 0x3a, 0x30, 0x1a, 0x2d, 0x53, 0x74, 0x61, 0x74, 0x65,
  0x66, 0x75, 0x6c, 0x50, 0x61, 0x72, 0x74, 0x69, 0x74, 0x69, 0x6f, 0x6e,
  0x65, 0x64, 0x43, 0x61, 0x6c, 0x6c, 0x2f, 0x73, 0x65, 0x71, 0x75, 0x65,
  0x6e, 0x74, 0x69, 0x61, 0x6c, 0x2f, 0x64, 0x65, 0x6e, 0x73, 0x65, 0x2f,
  0x52, 0x65, 0x6c, 0x75, 0x22, 0x04, 0x52, 0x65, 0x6c, 0x75, 0x0a, 0xd8,
  0x02, 0x0a, 0x2f, 0x53, 0x74, 0x61, 0x74, 0x65, 0x66, 0x75, 0x6c, 0x50,
  0x61, 0x72, 0x74, 0x69, 0x74, 0x69, 0x6f, 0x6e, 0x65, 0x64, 0x43, 0x61,
  0x6c, 0x6c, 0x2f, 0x73, 0x65, 0x71, 0x75, 0x65, 0x6e, 0x74, 0x69, 0x61,
  0x6c, 0x2f, 0x64, 0x65, 0x6e, 0x73, 0x65, 0x2f, 0x52, 0x65, 0x6c, 0x75,
  0x3a, 0x30, 0x0a, 0x42, 0x53, 0x74, 0x61, 0x74, 0x65, 0x66, 0x75, 0x6c,
  0x50, 0x61, 0x72, 0x74, 0x69, 0x74, 0x69, 0x6f, 0x6e, 0x65, 0x64, 0x43,
  0x61, 0x6c, 0x6c, 0x2f, 0x73, 0x65, 0x71, 0x75, 0x65, 0x6e, 0x74, 0x69,
  0x61, 0x6c, 0x2f, 0x64, 0x65, 0x6e, 0x73, 0x65, 0x5f, 0x31, 0x2f, 0x4d,
  0x61, 0x74, 0x4d, 0x75, 0x6c, 0x2f, 0x52, 0x65, 0x61, 0x64, 0x56, 0x61,
  0x72, 0x69, 0x61, 0x62, 0x6c, 0x65, 0x4f, 0x70, 0x3a, 0x30, 0x0a, 0x43,
  0x53, 0x74, 0x61, 0x74, 0x65, 0x66, 0x75, 0x6c, 0x50, 0x61, 0x72, 0x74,
  0x69, 0x74, 0x69, 0x6f, 0x6e, 0x65, 0x64, 0x43, 0x61, 0x6c, 0x6c, 0x2f,
  0x73, 0x65, 0x71, 0x75, 0x65, 0x6e, 0x74, 0x69, 0x61, 0x6c, 0x2f, 0x64,
  0x65, 0x6e, 0x73, 0x65, 0x5f, 0x31, 0x2f, 0x42, 0x69, 0x61, 0x73, 0x41,
  0x64, 0x64, 0x2f, 0x52, 0x65, 0x61, 0x64, 0x56, 0x61, 0x72, 0x69, 0x61,
  0x62, 0x6c, 0x65, 0x4f, 0x70, 0x3a, 0x30, 0x12, 0x3b, 0x53, 0x74, 0x61,
  0x74, 0x65, 0x66, 0x75, 0x6c, 0x50, 0x61, 0x72, 0x74, 0x69, 0x74, 0x69,
  0x6f, 0x6e, 0x65, 0x64, 0x43, 0x61, 0x6c, 0x6c, 0x2f, 0x73, 0x65, 0x71,
  0x75, 0x65, 0x6e, 0x74, 0x69, 0x61, 0x6c, 0x2f, 0x64, 0x65, 0x6e, 0x73,
  0x65, 0x5f, 0x31, 0x2f, 0x4d, 0x61, 0x74, 0x4d, 0x75, 0x6c, 0x5f, 0x47,
  0x65, 0x6d, 0x6d, 0x5f, 0x5f, 0x37, 0x3a, 0x30, 0x1a, 0x39, 0x53, 0x74,
  0x61, 0x74, 0x65, 0x66, 0x75, 0x6c, 0x50, 0x61, 0x72, 0x74, 0x69, 0x74,
  0x69, 0x6f, 0x6e, 0x65, 0x64, 0x43, 0x61, 0x6c, 0x6c, 0x2f, 0x73, 0x65,
  0x71, 0x75, 0x65, 0x6e, 0x74, 0x69, 0x61, 0x6c, 0x2f, 0x64, 0x65, 0x6e,
  0x73, 0x65, 0x5f, 0x31, 0x2f, 0x4d, 0x61, 0x74, 0x4d, 0x75, 0x6c, 0x5f,
  0x47, 0x65, 0x6d, 0x6d, 0x5f, 0x5f, 0x37, 0x22, 0x04, 0x47, 0x65, 0x6d,
  0x6d, 0x2a, 0x0d, 0x0a, 0x06, 0x74, 0x72, 0x61, 0x6e, 0x73, 0x41, 0x18,
  0x00, 0xa0, 0x01, 0x02, 0x2a, 0x0d, 0x0a, 0x06, 0x74, 0x72, 0x61, 0x6e,
  0x73, 0x42, 0x18, 0x00, 0xa0, 0x01, 0x02, 0x3a, 0x00, 0x0a, 0xa7, 0x01,
  0x0a, 0x3b, 0x53, 0x74, 0x61, 0x74, 0x65, 0x66, 0x75, 0x6c, 0x50, 0x61,
  0x72, 0x74, 0x69, 0x74, 0x69, 0x6f, 0x6e, 0x65, 0x64, 0x43, 0x61, 0x6c,
  0x6c, 0x2f, 0x73, 0x65, 0x71, 0x75, 0x65, 0x6e, 0x74, 0x69, 0x61, 0x6c,
  0x2f, 0x64, 0x65, 0x6e, 0x73, 0x65, 0x5f, 0x31, 0x2f, 0x4d, 0x61, 0x74,
  0x4d, 0x75, 0x6c, 0x5f, 0x47, 0x65, 0x6d, 0x6d, 0x5f, 0x5f, 0x37, 0x3a,
  0x30, 0x12, 0x31, 0x53, 0x74, 0x61, 0x74, 0x65, 0x66, 0x75, 0x6c, 0x50,
  0x61, 0x72, 0x74, 0x69, 0x74, 0x69, 0x6f, 0x6e, 0x65, 0x64, 0x43, 0x61,
  0x6c, 0x6c, 0x2f, 0x73, 0x65, 0x71, 0x75, 0x65, 0x6e, 0x74, 0x69, 0x61,
  0x6c, 0x2f, 0x64, 0x65, 0x6e, 0x73, 0x65, 0x5f, 0x31, 0x2f, 0x52, 0x65,
  0x6c, 0x75, 0x3a, 0x30, 0x1a, 0x2f, 0x53, 0x74, 0x61, 0x74, 0x65, 0x66,
  0x75, 0x6c, 0x50, 0x61, 0x72, 0x74, 0x69, 0x74, 0x69, 0x6f, 0x6e, 0x65,
  0x64, 0x43, 0x61, 0x6c, 0x6c, 0x2f, 0x73, 0x65, 0x71, 0x75, 0x65, 0x6e,
  0x74, 0x69, 0x61, 0x6c, 0x2f, 0x64, 0x65, 0x6e, 0x73, 0x65, 0x5f, 0x31,
  0x2f, 0x52, 0x65, 0x6c, 0x75, 0x22, 0x04, 0x52, 0x65, 0x6c, 0x75, 0x0a,
  0xd6, 0x02, 0x0a, 0x31, 0x53, 0x74, 0x61, 0x74, 0x65, 0x66, 0x75, 0x6c,
  0x50, 0x61, 0x72, 0x74, 0x69, 0x74, 0x69, 0x6f, 0x6e, 0x65, 0x64, 0x43,
  0x61, 0x6c, 0x6c, 0x2f, 0x73, 0x65, 0x71, 0x75, 0x65, 0x6e, 0x74, 0x69,
  0x61, 0x6c, 0x2f, 0x64, 0x65, 0x6e, 0x73, 0x65, 0x5f, 0x31, 0x2f, 0x52,
  0x65, 0x6c, 0x75, 0x3a, 0x30, 0x0a, 0x41, 0x53, 0x74, 0x61, 0x74, 0x65,
  0x66, 0x75, 0x6c, 0x50, 0x61, 0x72, 0x74, 0x69, 0x74, 0x69, 0x6f, 0x6e,
  0x65, 0x64, 0x43, 0x61, 0x6c, 0x6c, 0x2f, 0x73, 0x65, 0x71, 0x75, 0x65,
  0x6e, 0x74, 0x69, 0x61, 0x6c, 0x2f, 0x79, 0x5f, 0x70, 0x72, 0x65, 0x64,
  0x2f, 0x4d, 0x61, 0x74, 0x4d, 0x75, 0x6c, 0x2f, 0x52, 0x65, 0x61, 0x64,
  0x56, 0x61, 0x72, 0x69, 0x61, 0x62, 0x6c, 0x65, 0x4f, 0x70, 0x3a, 0x30,
  0x0a, 0x42, 0x53, 0x74, 0x61, 0x74, 0x65, 0x66, 0x75, 0x6c, 0x50, 0x61,
  0x72, 0x74, 0x69, 0x74, 0x69, 0x6f, 0x6e, 0x65, 0x64, 0x43, 0x61, 0x6c,
  0x6c, 0x2f, 0x73, 0x65, 0x71, 0x75, 0x65, 0x6e, 0x74, 0x69, 0x61, 0x6c,
  0x2f, 0x79, 0x5f, 0x70, 0x72, 0x65, 0x64, 0x2f, 0x42, 0x69, 0x61, 0x73,
  0x41, 0x64, 0x64, 0x2f, 0x52, 0x65, 0x61, 0x64, 0x56, 0x61, 0x72, 0x69,
  0x61, 0x62, 0x6c, 0x65, 0x4f, 0x70, 0x3a, 0x30, 0x12, 0x3a, 0x53, 0x74,
  0x61, 0x74, 0x65, 0x66, 0x75, 0x6c, 0x50, 0x61, 0x72, 0x74, 0x69, 0x74,
  0x69, 0x6f, 0x6e, 0x65, 0x64, 0x43, 0x61, 0x6c, 0x6c, 0x2f, 0x73, 0x65,
  0x71, 0x75, 0x65, 0x6e, 0x74, 0x69, 0x61, 0x6c, 0x2f, 0x79, 0x5f, 0x70,
  0x72, 0x65, 0x64, 0x2f, 0x4d, 0x61, 0x74, 0x4d, 0x75, 0x6c, 0x5f, 0x47,
  0x65, 0x6d, 0x6d, 0x5f, 0x5f, 0x38, 0x3a, 0x30, 0x1a, 0x38, 0x53, 0x74,
  0x61, 0x74, 0x65, 0x66, 0x75, 0x6c, 0x50, 0x61, 0x72, 0x74, 0x69, 0x74,
  0x69, 0x6f, 0x6e, 0x65, 0x64, 0x43, 0x61, 0x6c, 0x6c, 0x2f, 0x73, 0x65,
  0x71, 0x75, 0x65, 0x6e, 0x74, 0x69, 0x61, 0x6c, 0x2f, 0x79, 0x5f, 0x70,
  0x72, 0x65, 0x64, 0x2f, 0x4d, 0x61, 0x74, 0x4d, 0x75, 0x6c, 0x5f, 0x47,
  0x65, 0x6d, 0x6d, 0x5f, 0x5f, 0x38, 0x22, 0x04, 0x47, 0x65, 0x6d, 0x6d,
  0x2a, 0x0d, 0x0a, 0x06, 0x74, 0x72, 0x61, 0x6e, 0x73, 0x41, 0x18, 0x00,
  0xa0, 0x01, 0x02, 0x2a, 0x0d, 0x0a, 0x06, 0x74, 0x72, 0x61, 0x6e, 0x73,
  0x42, 0x18, 0x00, 0xa0, 0x01, 0x02, 0x3a, 0x00, 0x0a, 0x8f, 0x01, 0x0a,
  0x3a, 0x53, 0x74, 0x61, 0x74, 0x65, 0x66, 0x75, 0x6c, 0x50, 0x61, 0x72,
  0x74, 0x69, 0x74, 0x69, 0x6f, 0x6e, 0x65, 0x64, 0x43, 0x61, 0x6c, 0x6c,
  0x2f, 0x73, 0x65, 0x71, 0x75, 0x65, 0x6e, 0x74, 0x69, 0x61, 0x6c, 0x2f,
  0x79, 0x5f, 0x70, 0x72, 0x65, 0x64, 0x2f, 0x4d, 0x61, 0x74, 0x4d, 0x75,
  0x6c, 0x5f, 0x47, 0x65, 0x6d, 0x6d, 0x5f, 0x5f, 0x38, 0x3a, 0x30, 0x12,
  0x08, 0x6f, 0x75, 0x74, 0x70, 0x75, 0x74, 0x5f, 0x30, 0x1a, 0x31, 0x53,
  0x74, 0x61, 0x74, 0x65, 0x66, 0x75, 0x6c, 0x50, 0x61, 0x72, 0x74, 0x69,
  0x74, 0x69, 0x6f, 0x6e, 0x65, 0x64, 0x43, 0x61, 0x6c, 0x6c, 0x2f, 0x73,
  0x65, 0x71, 0x75, 0x65, 0x6e, 0x74, 0x69, 0x61, 0x6c, 0x2f, 0x79, 0x5f,
  0x70, 0x72, 0x65, 0x64, 0x2f, 0x53, 0x6f, 0x66, 0x74, 0x6d, 0x61, 0x78,
  0x22, 0x07, 0x53, 0x6f, 0x66, 0x74, 0x6d, 0x61, 0x78, 0x2a, 0x0b, 0x0a,
  0x04, 0x61, 0x78, 0x69, 0x73, 0x18, 0x01, 0xa0, 0x01, 0x02, 0x12, 0x07,
  0x74, 0x66, 0x32, 0x6f, 0x6e, 0x6e, 0x78, 0x2a, 0x9b, 0x01, 0x08, 0x0a,
  0x08, 0x02, 0x10, 0x01, 0x42, 0x41, 0x53, 0x74, 0x61, 0x74, 0x65, 0x66,
  0x75, 0x6c, 0x50, 0x61, 0x72, 0x74, 0x69, 0x74, 0x69, 0x6f, 0x6e, 0x65,
  0x64, 0x43, 0x61, 0x6c, 0x6c, 0x2f, 0x73, 0x65, 0x71, 0x75, 0x65, 0x6e,
  0x74, 0x69, 0x61, 0x6c, 0x2f, 0x79, 0x5f, 0x70, 0x72, 0x65, 0x64, 0x2f,
  0x4d, 0x61, 0x74, 0x4d, 0x75, 0x6c, 0x2f, 0x52, 0x65, 0x61, 0x64, 0x56,
  0x61, 0x72, 0x69, 0x61, 0x62, 0x6c, 0x65, 0x4f, 0x70, 0x3a, 0x30, 0x4a,
  0x50, 0xfb, 0x0d, 0xab, 0xbe, 0x73, 0xc0, 0x08, 0x3f, 0xd9, 0xfe, 0x33,
  0xbf, 0x65, 0x04, 0x20, 0xbf, 0x68, 0xfb, 0x17, 0xbe, 0x4a, 0xdf, 0xac,
  0x3c, 0x38, 0xc7, 0x2d, 0xbf, 0xcf, 0x59, 0x22, 0x3f, 0x70, 0xee, 0x85,
  0x3d, 0x18, 0x3f, 0x0b, 0x3f, 0xb0, 0x92, 0x20, 0xbf, 0x81, 0xbb, 0x08,
  0x3f, 0x61, 0xd4, 0xa4, 0x3e, 0x23, 0x3a, 0xa3, 0x3e, 0xba, 0xa6, 0xc1,
  0x3e, 0x1f, 0x1d, 0x24, 0x3d, 0xf3, 0x64, 0xdc, 0xbc, 0xfe, 0xf4, 0x47,
  0x3e, 0x6d, 0xa5, 0xcd, 0x3e, 0xba, 0xa6, 0x20, 0xbe, 0x2a, 0x52, 0x08,
  0x02, 0x10, 0x01, 0x42, 0x42, 0x53, 0x74, 0x61, 0x74, 0x65, 0x66, 0x75,
  0x6c, 0x50, 0x61, 0x72, 0x74, 0x69, 0x74, 0x69, 0x6f, 0x6e, 0x65, 0x64,
  0x43, 0x61, 0x6c, 0x6c, 0x2f, 0x73, 0x65, 0x71, 0x75, 0x65, 0x6e, 0x74,
  0x69, 0x61, 0x6c, 0x2f, 0x79, 0x5f, 0x70, 0x72, 0x65, 0x64, 0x2f, 0x42,
  0x69, 0x61, 0x73, 0x41, 0x64, 0x64, 0x2f, 0x52, 0x65, 0x61, 0x64, 0x56,
  0x61, 0x72, 0x69, 0x61, 0x62, 0x6c, 0x65, 0x4f, 0x70, 0x3a, 0x30, 0x4a,
  0x08, 0x06, 0x6e, 0x1b, 0x3e, 0x06, 0x6e, 0x1b, 0xbe, 0x2a, 0xed, 0x06,
  0x08, 0x14, 0x08, 0x0a, 0x10, 0x01, 0x42, 0x42, 0x53, 0x74, 0x61, 0x74,
  0x65, 0x66, 0x75, 0x6c, 0x50, 0x61, 0x72, 0x74, 0x69, 0x74, 0x69, 0x6f,
  0x6e, 0x65, 0x64, 0x43, 0x61, 0x6c, 0x6c, 0x2f, 0x73, 0x65, 0x71, 0x75,
  0x65, 0x6e, 0x74, 0x69, 0x61, 0x6c, 0x2f, 0x64, 0x65, 0x6e, 0x73, 0x65,
  0x5f, 0x31, 0x2f, 0x4d, 0x61, 0x74, 0x4d, 0x75, 0x6c, 0x2f, 0x52, 0x65,
  0x61, 0x64, 0x56, 0x61, 0x72, 0x69, 0x61, 0x62, 0x6c, 0x65, 0x4f, 0x70,
  0x3a, 0x30, 0x4a, 0xa0, 0x06, 0x54, 0xbb, 0xb2, 0xbe, 0xb1, 0x84, 0x9a,
  0xbe, 0x4b, 0x97, 0xae, 0xbe, 0x94, 0xcb, 0x9a, 0xbe, 0xff, 0x2f, 0xab,
  0x3c, 0x9c, 0x47, 0x44, 0x3e, 0x97, 0x1c, 0x8f, 0x3e, 0x51, 0x98, 0x9c,
  0xbe, 0x90, 0x88, 0xbf, 0xbe, 0x98, 0x49, 0xdd, 0x3a, 0xe8, 0xb0, 0xe0,
  0x3c, 0x1b, 0x3e, 0x8a, 0x3d, 0x2c, 0x90, 0xca, 0x3e, 0xcf, 0x6a, 0xe7,
  0xbd, 0x20, 0x0b, 0xdf, 0x3c, 0x52, 0x70, 0xa8, 0x3e, 0x51, 0x6c, 0x2e,
  0xbe, 0xe5, 0x3d, 0xb1, 0x3e, 0xab, 0x54, 0x74, 0x3e, 0x5d, 0xe4, 0x3e,
  0x3e, 0x2f, 0x27, 0xba, 0x3d, 0x5d, 0xc3, 0x5d, 0xbe, 0xc6, 0x17, 0xe5,
  0x3d, 0xb8, 0x1a, 0xa4, 0xbe, 0xa1, 0x80, 0x84, 0xbe, 0x72, 0xc2, 0xb8,
  0xbe, 0xb1, 0xba, 0xd5, 0xbb, 0x6e, 0xea, 0x7c, 0xbe, 0x83, 0xcd, 0x04,
  0x3d, 0x3b, 0x8f, 0xaa, 0x3d, 0xdf, 0xbb, 0xea, 0x3c, 0xda, 0x9f, 0x09,
  0x3e, 0xbd, 0xf3, 0x7c, 0xbe, 0xe9, 0xd8, 0xd7, 0xbe, 0xf3, 0x53, 0xd1,
  0xbe, 0x97, 0xd9, 0x82, 0xbd, 0x96, 0xcc, 0x96, 0x3e, 0x3b, 0xb4, 0xef,
  0xbe, 0x44, 0xc4, 0x98, 0x3d, 0x00, 0x6f, 0x00, 0x3f, 0xbd, 0x4e, 0xbb,
  0x3e, 0x37, 0xaf, 0xaa, 0x3d, 0x01, 0x10, 0x8d, 0x3e, 0xb9, 0x36, 0xe0,
  0xbd, 0x07, 0x9d, 0xe4, 0xbe, 0x5d, 0x05, 0xae, 0xbe, 0xab, 0xec, 0x4c,
  0x3e, 0xa0, 0xe7, 0x1c, 0xbe, 0x48, 0xfa, 0x90, 0x3e, 0xa8, 0x21, 0x2c,
  0xbe, 0x0f, 0xb3, 0x88, 0xbe, 0x82, 0x0e, 0xbf, 0x3c, 0x27, 0xa9, 0xdb,
  0x3c, 0x03, 0xc4, 0x2a, 0x3e, 0x68, 0x2e, 0xa5, 0x3e, 0xce, 0x87, 0x1e,
  0xbe, 0xfa, 0x5f, 0x36, 0xbe, 0xfe, 0xcc, 0xf2, 0xbd, 0xf6, 0x53, 0x89,
  0xbd, 0x33, 0xa8, 0xa9, 0x3e, 0x6a, 0xe5, 0x22, 0xbe, 0x91, 0xb4, 0x8c,
  0x3e, 0x01, 0x59, 0xd6, 0x3d, 0xec, 0xd8, 0x68, 0x3e, 0xb0, 0xc4, 0x5b,
  0xbe, 0x46, 0x9e, 0xa5, 0xbd, 0x12, 0x06, 0xdf, 0xbc, 0xd5, 0x97, 0x4a,
  0xbe, 0xde, 0xd2, 0x20, 0x3e, 0x86, 0xff, 0xdc, 0x3e, 0x0a, 0x1f, 0x7f,
  0x3d, 0x22, 0x90, 0x41, 0xbe, 0xb2, 0x84, 0x55, 0xbe, 0x75, 0x91, 0x8f,
  0x3e, 0x90, 0xa4, 0xd2, 0xbc, 0xc9, 0x95, 0x0b, 0xbe, 0x12, 0x90, 0x1d,
  0x3e, 0x44, 0x72, 0xbe, 0xbe, 0x63, 0x81, 0xef, 0xbe, 0x71, 0x81, 0x2e,
  0xbe, 0xaa, 0x82, 0x53, 0xbe, 0x39, 0xab, 0x00, 0xbe, 0x06, 0x8b, 0xff,
  0x3e, 0x5b, 0xa4, 0xf9, 0x3e, 0x3c, 0x12, 0x72, 0xbe, 0x85, 0x4b, 0x07,
  0x3f, 0x12, 0x7e, 0x75, 0x3e, 0x4f, 0x73, 0x84, 0x3e, 0xef, 0xc4, 0x1d,
  0xbc, 0xa3, 0x5b, 0x66, 0x3e, 0xc4, 0xba, 0xcf, 0xbe, 0x34, 0xb1, 0xb1,
  0xbe, 0xd3, 0x30, 0xb2, 0x3e, 0xe0, 0xce, 0xac, 0xbe, 0x93, 0x0d, 0xcd,
  0x3e, 0xed, 0xa2, 0xc6, 0xbe, 0x85, 0xc9, 0xb7, 0x3e, 0x9a, 0x7e, 0x76,
  0x3e, 0x9e, 0xb5, 0xb1, 0xbe, 0x98, 0x2e, 0x51, 0xbd, 0xc0, 0x88, 0x70,
  0xbe, 0xc4, 0xc9, 0x81, 0x3d, 0xc6, 0x2c, 0x7c, 0xbe, 0xd0, 0x16, 0x99,
  0x3e, 0xc7, 0x79, 0x65, 0x3c, 0xbd, 0x1b, 0x09, 0xbf, 0xfc, 0x1e, 0x47,
  0xbe, 0xd6, 0xa4, 0x6b, 0x3e, 0xd9, 0x80, 0x80, 0x3e, 0xee, 0x50, 0x14,
  0xbe, 0xe9, 0x59, 0x7f, 0xbd, 0x8e, 0x48, 0xa0, 0xbe, 0xda, 0xd9, 0x90,
  0xbd, 0xda, 0x35, 0x7a, 0x3e, 0xe5, 0xe8, 0xaa, 0xbe, 0x55, 0xea, 0x08,
  0x3f, 0x41, 0xd6, 0x9b, 0x3e, 0x3c, 0xc5, 0xa4, 0x3e, 0x22, 0x42, 0xc8,
  0x3e, 0xb2, 0x0c, 0x3b, 0x3d, 0xc0, 0x6c, 0xcd, 0x3e, 0x0f, 0x16, 0xee,
  0xbd, 0xed, 0x39, 0x25, 0x3e, 0x7f, 0xe2, 0x90, 0x3c, 0x95, 0x0d, 0xce,
  0xbe, 0xc7, 0x1d, 0xb2, 0xbe, 0xc4, 0xfa, 0xe9, 0xbe, 0x0f, 0x08, 0x14,
  0xbe, 0x7a, 0xc7, 0xc8, 0x3e, 0x6f, 0x58, 0xad, 0xbe, 0x1a, 0x5a, 0xd5,
  0x3e, 0x29, 0x41, 0x18, 0xbe, 0x72, 0x45, 0xbe, 0xbe, 0x72, 0xcf, 0x81,
  0xbe, 0x99, 0x49, 0x08, 0x3e, 0xd6, 0x52, 0x94, 0x3e, 0x22, 0xc2, 0x93,
  0xbd, 0xd7, 0x23, 0xf9, 0xbd, 0xd3, 0x77, 0xdf, 0x3e, 0xc7, 0xda, 0x19,
  0xbe, 0x05, 0x08, 0xe0, 0xbd, 0xeb, 0x7f, 0xa9, 0xbe, 0x66, 0x28, 0x1e,
  0x3e, 0xa3, 0xb9, 0xb3, 0xbd, 0xed, 0x22, 0x7e, 0xbd, 0x42, 0xa7, 0x4f,
  0xbe, 0xc7, 0x61, 0x8b, 0xbc, 0x94, 0xc2, 0xdd, 0xbd, 0xc8, 0x85, 0x6a,
  0xbd, 0x9a, 0xf9, 0xb9, 0xbe, 0xe6, 0x59, 0x33, 0xbc, 0x3e, 0x08, 0xd5,
  0xbe, 0x6d, 0xad, 0x5d, 0xbe, 0x5e, 0xc7, 0xc8, 0x3e, 0xc5, 0x32, 0x46,
  0x3d, 0xbe, 0xcf, 0x95, 0x3e, 0xc9, 0x0d, 0xe4, 0xbd, 0xb9, 0xd8, 0x75,
  0xbe, 0x69, 0xd5, 0x28, 0x3e, 0x79, 0x4b, 0x1d, 0x3e, 0xbc, 0x03, 0xca,
  0xbe, 0x91, 0x95, 0x6b, 0xbe, 0x54, 0xa6, 0x84, 0xbd, 0x97, 0xd9, 0x86,
  0x3d, 0x01, 0x93, 0x40, 0x3d, 0x37, 0x13, 0xaa, 0xbe, 0x22, 0x70, 0x15,
  0x3e, 0x21, 0x75, 0x94, 0xbe, 0xd5, 0x91, 0xd3, 0xbe, 0x33, 0x07, 0x0c,
  0x3f, 0xdb, 0xdf, 0x40, 0x3d, 0x8b, 0xd9, 0x90, 0x3e, 0x17, 0xbf, 0xf6,
  0x3e, 0xd3, 0xa5, 0x30, 0x3e, 0x57, 0xcb, 0xcd, 0xbe, 0x27, 0x2f, 0x79,
  0xbc, 0x17, 0x2d, 0x49, 0xbd, 0xba, 0x53, 0x8a, 0x3c, 0x68, 0xc9, 0xbc,
  0x3e, 0x4d, 0x97, 0xe2, 0x3e, 0xeb, 0xf4, 0x1e, 0xbe, 0x0f, 0x1a, 0x4b,
  0x3e, 0x14, 0xea, 0xac, 0xbe, 0x28, 0xb2, 0xa9, 0x3d, 0xd1, 0xcd, 0xc2,
  0x3e, 0x76, 0xd7, 0xe0, 0xbe, 0x80, 0x94, 0xa9, 0x3d, 0x98, 0x88, 0x6e,
  0xbe, 0xf0, 0xfa, 0x29, 0xbe, 0xc0, 0x9e, 0x7c, 0x3d, 0x7c, 0x9d, 0x8c,
  0x3d, 0x8f, 0x37, 0xd6, 0xbe, 0x2b, 0xee, 0xd7, 0xbd, 0x1c, 0xb6, 0x9f,
  0xbe, 0x75, 0x72, 0x8d, 0x3d, 0x62, 0xe8, 0x94, 0x3e, 0x31, 0xa3, 0x6a,
  0xbe, 0x05, 0x53, 0x03, 0x3e, 0x1f, 0x5b, 0x40, 0xbd, 0xd6, 0x75, 0x02,
  0x3f, 0x2a, 0x73, 0x08, 0x0a, 0x10, 0x01, 0x42, 0x43, 0x53, 0x74, 0x61,
  0x74, 0x65, 0x66, 0x75, 0x6c, 0x50, 0x61, 0x72, 0x74, 0x69, 0x74, 0x69,
  0x6f, 0x6e, 0x65, 0x64, 0x43, 0x61, 0x6c, 0x6c, 0x2f, 0x73, 0x65, 0x71,
  0x75, 0x65, 0x6e, 0x74, 0x69, 0x61, 0x6c, 0x2f, 0x64, 0x65, 0x6e, 0x73,
  0x65, 0x5f, 0x31, 0x2f, 0x42, 0x69, 0x61, 0x73, 0x41, 0x64, 0x64, 0x2f,
  0x52, 0x65, 0x61, 0x64, 0x56, 0x61, 0x72, 0x69, 0x61, 0x62, 0x6c, 0x65,
  0x4f, 0x70, 0x3a, 0x30, 0x4a, 0x28, 0xd4, 0xae, 0x9c, 0xbd, 0x82, 0xff,
  0x13, 0xbd, 0xf3, 0x42, 0x01, 0xbe, 0xff, 0xf9, 0xb3, 0xbd, 0x9d, 0xd0,
  0x90, 0xbd, 0x6e, 0xc7, 0x0e, 0xbe, 0xdd, 0xfa, 0x6c, 0xbd, 0xef, 0x6f,
  0x73, 0xbd, 0xc6, 0xf7, 0x0e, 0xbe, 0xed, 0x56, 0x3a, 0x3e, 0x2a, 0x9b,
  0x15, 0x08, 0x21, 0x08, 0x14, 0x10, 0x01, 0x42, 0x40, 0x53, 0x74, 0x61,
  0x74, 0x65, 0x66, 0x75, 0x6c, 0x50, 0x61, 0x72, 0x74, 0x69, 0x74, 0x69,
  0x6f, 0x6e, 0x65, 0x64, 0x43, 0x61, 0x6c, 0x6c, 0x2f, 0x73, 0x65, 0x71,
  0x75, 0x65, 0x6e, 0x74, 0x69, 0x61, 0x6c, 0x2f, 0x64, 0x65, 0x6e, 0x73,
  0x65, 0x2f, 0x4d, 0x61, 0x74, 0x4d, 0x75, 0x6c, 0x2f, 0x52, 0x65, 0x61,
  0x64, 0x56, 0x61, 0x72, 0x69, 0x61, 0x62, 0x6c, 0x65, 0x4f, 0x70, 0x3a,
  0x30, 0x4a, 0xd0, 0x14, 0xb5, 0x4e, 0x44, 0xbe, 0x3f, 0x43, 0xd8, 0x3d,
  0x6e, 0xd2, 0x45, 0xbd, 0x26, 0x7b, 0xc8, 0xbe, 0xc0, 0x7f, 0x5e, 0x3b,
  0x4b, 0x59, 0xb2, 0x3d, 0xc0, 0xa2, 0x82, 0xbe, 0x9b, 0x13, 0x14, 0xbe,
  0xbb, 0x7a, 0x5b, 0x3e, 0x38, 0x89, 0xbe, 0xbd, 0xcd, 0x8e, 0x9c, 0xbe,
  0xa1, 0xc6, 0xd6, 0x3e, 0x31, 0xb7, 0xf2, 0x3d, 0x34, 0x97, 0x32, 0x3e,
  0x67, 0x4e, 0x5e, 0xbe, 0x41, 0x74, 0xb5, 0xbd, 0x56, 0x0d, 0xaa, 0xbe,
  0x7d, 0x0c, 0xac, 0xbd, 0xdd, 0xd3, 0xa6, 0xbe, 0x3a, 0xda, 0xb6, 0xbd,
  0xeb, 0x54, 0xec, 0xbd, 0x26, 0x8c, 0xaf, 0x3d, 0x03, 0x6d, 0x83, 0xbe,
  0x3e, 0x17, 0x8c, 0x3d, 0xe6, 0x1c, 0x2e, 0x3e, 0xc8, 0xed, 0xf4, 0x3c,
  0x9a, 0x6e, 0xe3, 0x3e, 0x31, 0x03, 0x8d, 0x3e, 0x4d, 0x0f, 0x3e, 0x3c,
  0xd1, 0x81, 0x14, 0x3e, 0x14, 0x56, 0x63, 0xbe, 0x61, 0xc3, 0xa3, 0x3d,
  0xc5, 0xe0, 0xa2, 0x3d, 0xc8, 0x73, 0x5b, 0xbc, 0xff, 0x8e, 0xb2, 0xbe,
  0x25, 0x65, 0x84, 0x3e, 0xc0, 0x26, 0xe1, 0x3e, 0xa1, 0x48, 0x18, 0x3e,
  0x95, 0x34, 0x14, 0xbc, 0xf2, 0xe3, 0xb0, 0x3e, 0x19, 0xff, 0x14, 0xbe,
  0x3b, 0x1d, 0x9f, 0x3c, 0xba, 0x26, 0x9e, 0xbe, 0xb1, 0x53, 0x4f, 0xbe,
  0x01, 0x6a, 0x77, 0xbe, 0xcd, 0x58, 0x40, 0xbd, 0xd2, 0x47, 0x80, 0x3d,
  0xd1, 0x0a, 0x83, 0xbe, 0x93, 0xb5, 0x35, 0x3e, 0x4f, 0x50, 0xf2, 0xbc,
  0x61, 0x18, 0xa0, 0xbe, 0xb7, 0xf5, 0x71, 0x3d, 0xa5, 0xea, 0xf3, 0x3c,
  0x96, 0xc0, 0x00, 0xbd, 0xaf, 0x9f, 0x9e, 0x3e, 0x86, 0x2e, 0x00, 0xbc,
  0x39, 0xab, 0x40, 0x3e, 0x44, 0xe4, 0x51, 0xbe, 0xec, 0xe3, 0x81, 0x3e,
  0xed, 0x80, 0x80, 0x3e, 0xa2, 0xfd, 0xb3, 0x3d, 0xaa, 0xf9, 0x17, 0xbe,
  0x57, 0x4f, 0x4b, 0x3e, 0x79, 0x5a, 0x3f, 0x3e, 0x48, 0xa3, 0x13, 0x3e,
  0xff, 0x0f, 0x3b, 0x3d, 0xa0, 0x75, 0x5d, 0xbd, 0x47, 0x81, 0xef, 0xbd,
  0x95, 0xac, 0x91, 0xbe, 0xdb, 0x12, 0x09, 0x3e, 0xc6, 0x0e, 0x69, 0xbe,
  0xa9, 0x8b, 0x4f, 0x3c, 0x69, 0x0b, 0x6c, 0xbe, 0xa3, 0x54, 0x86, 0x3e,
  0x92, 0x17, 0x2c, 0xbe, 0x0d, 0xbd, 0x12, 0x3e, 0x5f, 0x32, 0x8c, 0x3d,
  0x79, 0xb5, 0x16, 0xbe, 0x69, 0x52, 0x8e, 0x3e, 0x22, 0x10, 0x91, 0x3e,
  0x9c, 0x46, 0x98, 0xbd, 0x57, 0xb0, 0x23, 0x3d, 0xbc, 0x9d, 0xa4, 0x3b,
  0x70, 0x98, 0xc9, 0x3d, 0xb4, 0x59, 0xde, 0x3d, 0x22, 0xe7, 0x09, 0x3d,
  0xc2, 0xf0, 0xf2, 0xbc, 0x3d, 0xc3, 0x99, 0xbe, 0x6d, 0x06, 0x9f, 0x3e,
  0xee, 0xc7, 0x95, 0xbe, 0x74, 0xa0, 0xa0, 0x3e, 0xb2, 0x1a, 0xc0, 0x3d,
  0xe0, 0xb2, 0x8c, 0x3e, 0x5c, 0xc3, 0x57, 0x3d, 0xa5, 0x8b, 0x18, 0x3e,
  0xca, 0x1f, 0xe8, 0xbc, 0x73, 0x3a, 0xeb, 0xbb, 0xb8, 0x8e, 0xcb, 0x3e,
  0xc6, 0x7f, 0x88, 0x3e, 0x1d, 0x98, 0x20, 0x3d, 0xe7, 0x5d, 0x18, 0x3d,
  0x4a, 0x7e, 0x90, 0x3e, 0x6d, 0xc1, 0x06, 0x3e, 0xc6, 0x71, 0x38, 0x3e,
  0x22, 0x7e, 0xa7, 0x3e, 0xef, 0x2d, 0x8b, 0x3e, 0xc5, 0x89, 0x10, 0x3e,
  0x0c, 0xb9, 0x84, 0x3e, 0xaa, 0x99, 0xf0, 0x3d, 0xae, 0xa5, 0x32, 0x3d,
  0x5a, 0xa1, 0x1d, 0xbe, 0x49, 0xb6, 0x84, 0x3e, 0xc2, 0xd9, 0x6b, 0xbd,
  0xd4, 0x13, 0x24, 0xbe, 0x65, 0x65, 0xf0, 0xbd, 0x81, 0xcc, 0x7c, 0x3e,
  0x90, 0x5e, 0xe0, 0x3d, 0x54, 0x0e, 0x9c, 0x3d, 0xc5, 0xf2, 0x50, 0x3e,
  0x73, 0xb7, 0x9e, 0x3d, 0xf9, 0xd6, 0xab, 0xbe, 0x4b, 0xe3, 0x82, 0x3e,
  0x90, 0x3a, 0x96, 0xbe, 0x71, 0xea, 0x88, 0xbe, 0x63, 0x00, 0x7b, 0xbe,
  0x7e, 0xa1, 0x9b, 0x3c, 0xb4, 0x17, 0xb9, 0x3d, 0x61, 0x2b, 0xb1, 0x3c,
  0x9b, 0x90, 0x33, 0x3c, 0xdb, 0x14, 0xa9, 0xbd, 0xc4, 0x0d, 0x9f, 0x3d,
  0xf6, 0x33, 0x36, 0x3e, 0xe0, 0xc4, 0x15, 0x3e, 0x9e, 0xeb, 0x74, 0x3e,
  0xae, 0x2a, 0x2a, 0x3e, 0x9a, 0x51, 0xe3, 0xbd, 0xb1, 0x6e, 0xce, 0xbc,
  0x22, 0x48, 0xf1, 0x3d, 0x08, 0x35, 0x86, 0xbd, 0xbd, 0x6c, 0xb0, 0x3b,
  0xbc, 0x0f, 0x53, 0xbe, 0xc9, 0xd3, 0xa1, 0x3e, 0x87, 0xbb, 0x11, 0xbe,
  0xb2, 0xb3, 0x53, 0xbd, 0x08, 0x1d, 0x11, 0xbe, 0x26, 0x30, 0x48, 0xbb,
  0x10, 0x09, 0x06, 0xbe, 0xbc, 0xc8, 0x96, 0xbe, 0x5a, 0x9b, 0x51, 0xbb,
  0xbd, 0x46, 0x52, 0xbe, 0x59, 0xd8, 0x88, 0xbd, 0xde, 0x51, 0xb2, 0x3e,
  0x20, 0x86, 0x41, 0xbe, 0x3f, 0x3b, 0x87, 0x3d, 0x3f, 0xdf, 0x40, 0x3e,
  0x6c, 0x47, 0x3a, 0xbd, 0xfe, 0x58, 0x85, 0xbe, 0xe3, 0xf7, 0x66, 0x3e,
  0xfe, 0x56, 0xa9, 0xbe, 0x33, 0xee, 0x95, 0xbe, 0x10, 0x4d, 0x82, 0xbe,
  0x30, 0x9c, 0x4e, 0xbe, 0x5b, 0x16, 0x9a, 0xbe, 0x46, 0xba, 0x0f, 0xbe,
  0xe7, 0xaa, 0x3d, 0x3d, 0x21, 0x14, 0x3c, 0xbe, 0xec, 0x1a, 0x90, 0xbe,
  0x5c, 0xd7, 0x8f, 0x3e, 0xf6, 0x26, 0xa6, 0x3e, 0x22, 0xf9, 0x87, 0x3d,
  0xb3, 0xa3, 0x5a, 0xbc, 0x2d, 0xb7, 0xe9, 0x3e, 0x70, 0x6f, 0x15, 0xbb,
  0x5e, 0x02, 0x86, 0x3e, 0x6c, 0x09, 0x23, 0x3c, 0x1c, 0x3f, 0xfd, 0x3d,
  0x27, 0x0c, 0x41, 0xbe, 0x67, 0xcb, 0x4e, 0xbe, 0x72, 0xd9, 0x81, 0xbe,
  0x8f, 0x4a, 0x52, 0x3e, 0x47, 0xaf, 0x13, 0x3d, 0xe7, 0xcf, 0x9f, 0x3e,
  0x9b, 0xba, 0x20, 0xbd, 0xb3, 0x7a, 0x90, 0x3d, 0xce, 0x04, 0xa3, 0x3d,
  0x62, 0x1d, 0xe6, 0xbe, 0x53, 0x68, 0x89, 0x3d, 0x82, 0x82, 0x78, 0xbe,
  0x4b, 0x1b, 0x31, 0xbd, 0xa0, 0x8d, 0x26, 0xbe, 0x45, 0x79, 0x37, 0x3e,
  0x5b, 0x1d, 0x00, 0x3f, 0x94, 0x2c, 0xb0, 0x3e, 0xd6, 0x91, 0xd4, 0x3e,
  0x63, 0x2e, 0x0c, 0xbe, 0xe8, 0x5e, 0xde, 0x3e, 0xae, 0xae, 0xf9, 0xbc,
  0x98, 0xab, 0x20, 0xbc, 0x0b, 0x36, 0x81, 0xbe, 0x12, 0xf7, 0x6c, 0x3e,
  0x03, 0xfa, 0xa1, 0x3e, 0x6e, 0xe6, 0x6c, 0x3e, 0x3a, 0x03, 0x39, 0xbe,
  0x45, 0xb7, 0x19, 0xbe, 0xbe, 0x52, 0x89, 0x3d, 0x23, 0x04, 0x8a, 0xbe,
  0xd7, 0x5e, 0xb6, 0xbe, 0xd3, 0x74, 0x6a, 0x3e, 0x12, 0xd1, 0x27, 0xbe,
  0xa8, 0x9e, 0xa9, 0xbd, 0x88, 0xb5, 0xd3, 0x3b, 0x66, 0x01, 0xaa, 0x3d,
  0xf4, 0xb0, 0x52, 0xbc, 0xf4, 0xd6, 0xe0, 0x3e, 0x37, 0x06, 0x95, 0xbe,
  0xd9, 0x93, 0x4c, 0xbd, 0x70, 0x6f, 0xb7, 0xbd, 0xee, 0x40, 0x0b, 0x3c,
  0xfd, 0x47, 0xd7, 0xbe, 0x0c, 0x6a, 0x16, 0xbe, 0xad, 0xf3, 0x11, 0xbe,
  0xb0, 0x40, 0x17, 0xbe, 0x10, 0xd8, 0x10, 0xbe, 0xcf, 0xf7, 0xb8, 0xbe,
  0x99, 0x97, 0x22, 0x3c, 0xaf, 0x03, 0x87, 0xbe, 0xa4, 0x5c, 0x5e, 0xbe,
  0xe7, 0x7f, 0x61, 0xbe, 0xee, 0x4e, 0xd9, 0x3e, 0x92, 0x97, 0x3a, 0xbe,
  0x7e, 0xec, 0x92, 0x3e, 0x6e, 0x1b, 0xc9, 0x3e, 0x3d, 0x33, 0x10, 0xbe,
  0xb5, 0x5e, 0xce, 0x3e, 0x35, 0x38, 0x9c, 0xbd, 0x45, 0xed, 0x7f, 0x3e,
  0xd2, 0x62, 0xac, 0xbe, 0x93, 0x0c, 0x4c, 0x3e, 0x62, 0x97, 0x82, 0xbe,
  0xae, 0x97, 0x52, 0x3e, 0x61, 0xfe, 0xd1, 0xbd, 0x4f, 0xf3, 0x8e, 0xbd,
  0xb0, 0x34, 0x44, 0xbe, 0x94, 0x28, 0xe1, 0x3d, 0x6c, 0x76, 0xac, 0x3c,
  0x1f, 0xca, 0xc2, 0x3e, 0xd5, 0x70, 0x50, 0xbe, 0x00, 0x5a, 0x91, 0xbe,
  0x82, 0xac, 0xeb, 0x3c, 0xd3, 0x6c, 0x9b, 0xbd, 0xe8, 0xaf, 0xac, 0x3d,
  0x90, 0xfe, 0x4a, 0x3c, 0x01, 0x77, 0x8d, 0xbe, 0x79, 0x23, 0xac, 0x3d,
  0xb2, 0xd6, 0x95, 0xbe, 0x01, 0xab, 0x43, 0xbe, 0x77, 0xcd, 0x82, 0xbc,
  0xa9, 0x2f, 0x22, 0x3e, 0x37, 0x5e, 0x91, 0x3e, 0x99, 0x02, 0x09, 0x3c,
  0x42, 0xda, 0xa9, 0x3e, 0xda, 0xb3, 0x95, 0xbe, 0x69, 0xde, 0xe9, 0xbd,
  0x6f, 0x05, 0x13, 0x3e, 0xd8, 0x7e, 0xa6, 0xbd, 0x2a, 0x1c, 0x10, 0xbe,
  0xcb, 0xdc, 0x0a, 0xbe, 0xfe, 0xb1, 0x3f, 0xbe, 0xb9, 0xe2, 0x86, 0xbc,
  0x0f, 0x00, 0x9e, 0xbd, 0x3d, 0x51, 0x8d, 0x3e, 0xba, 0x08, 0xf4, 0xbd,
  0x73, 0x80, 0x79, 0x3e, 0x9a, 0xe9, 0x78, 0xbd, 0x71, 0x25, 0xda, 0xbd,
  0xfa, 0x36, 0xde, 0xbb, 0x99, 0x37, 0xb6, 0xbe, 0xe0, 0x0e, 0xdc, 0xbb,
  0x5d, 0xc1, 0x41, 0xbd, 0x8d, 0x22, 0xe7, 0xbd, 0x40, 0xe5, 0x01, 0x3e,
  0x4e, 0x6c, 0x38, 0xbe, 0x97, 0xaa, 0x42, 0x3e, 0x3e, 0x34, 0x2f, 0x3c,
  0x9f, 0x71, 0x86, 0xbe, 0x8d, 0x7a, 0x53, 0x3e, 0x7f, 0xe9, 0x6c, 0x3e,
  0x97, 0x8a, 0x5e, 0xbe, 0x66, 0xc1, 0x6e, 0xbe, 0x0f, 0x2a, 0x5a, 0x3d,
  0xa6, 0xf8, 0x11, 0x3d, 0x2d, 0x7a, 0xd6, 0xbd, 0xed, 0xd7, 0xc0, 0x3e,
  0xdf, 0xc5, 0x76, 0x3d, 0xb8, 0x63, 0x3d, 0x3c, 0xf2, 0x8b, 0x9e, 0x3e,
  0x68, 0xa0, 0x87, 0xbd, 0xe1, 0x33, 0xbc, 0xbd, 0xd3, 0x57, 0x84, 0xbd,
  0xc2, 0x90, 0x60, 0x3e, 0xf8, 0xa1, 0xb5, 0x3e, 0x2b, 0x95, 0x41, 0xbd,
  0xf7, 0x4a, 0x8b, 0xbe, 0x62, 0x6a, 0x68, 0xbe, 0x5d, 0xdf, 0xa2, 0xbd,
  0xd5, 0xc3, 0x95, 0x3d, 0x0b, 0x90, 0xcc, 0x3d, 0xe3, 0x37, 0x7a, 0xbd,
  0x51, 0x9d, 0x7c, 0xbd, 0xc9, 0x4b, 0x5c, 0xbe, 0x4b, 0x34, 0x8c, 0xbe,
  0xe1, 0x31, 0x92, 0x3e, 0xf4, 0x8e, 0xb3, 0xbe, 0x1d, 0x4d, 0x49, 0x3e,
  0xbb, 0x95, 0x84, 0xbd, 0x69, 0x76, 0x01, 0xbe, 0x5d, 0xfd, 0x91, 0x3d,
  0xc2, 0xb2, 0x3e, 0xbd, 0xb4, 0x93, 0xf2, 0x3d, 0x83, 0xfd, 0xda, 0x3d,
  0xb9, 0x29, 0xa1, 0x3e, 0x0a, 0x93, 0x00, 0xbe, 0x25, 0xb2, 0x49, 0xbe,
  0x86, 0x60, 0x1f, 0xbd, 0x44, 0x10, 0x2a, 0xbe, 0x78, 0x82, 0xb0, 0xbc,
  0xbd, 0xe6, 0x5e, 0x3d, 0x3b, 0x9d, 0xc9, 0xbc, 0xac, 0x8a, 0x28, 0x3e,
  0xbf, 0x5e, 0x5b, 0x3d, 0x6c, 0x80, 0x67, 0xbe, 0xde, 0xf1, 0xe7, 0x3d,
  0x23, 0xe3, 0xc8, 0x3d, 0xa1, 0x6e, 0xe9, 0xbd, 0xa2, 0x7e, 0x45, 0xbe,
  0xee, 0xee, 0x3a, 0xbd, 0x4f, 0xde, 0x6a, 0x3e, 0xd1, 0x73, 0x1c, 0x3e,
  0x6f, 0x0f, 0x0b, 0xbe, 0x95, 0xf2, 0x23, 0x3e, 0x4c, 0x7f, 0xbb, 0xbd,
  0x67, 0xac, 0x86, 0xbe, 0xff, 0x5d, 0xc1, 0xbd, 0xc9, 0xf6, 0xe8, 0xbd,
  0x11, 0x1b, 0x59, 0xbe, 0x36, 0x9e, 0x1e, 0x3e, 0x85, 0xd8, 0x4e, 0x3e,
  0xef, 0x61, 0x91, 0xbe, 0x9f, 0x48, 0x43, 0x3d, 0x7c, 0xb7, 0x79, 0x3e,
  0x02, 0xbc, 0x32, 0x3e, 0x86, 0x6a, 0x9c, 0x3e, 0xfd, 0x7e, 0xe8, 0xbc,
  0xef, 0xac, 0x99, 0xbd, 0x13, 0x2d, 0x25, 0xbe, 0xf4, 0xf1, 0xa3, 0x3e,
  0x45, 0x16, 0xbd, 0x3d, 0x32, 0x18, 0x45, 0x3c, 0x98, 0xa6, 0xed, 0xbd,
  0xd3, 0x5b, 0xa5, 0xbe, 0xc3, 0xfb, 0x82, 0x3e, 0x33, 0x04, 0x6c, 0x3e,
  0x65, 0x22, 0x45, 0x3e, 0xda, 0x92, 0x70, 0x3e, 0x1b, 0x9c, 0x42, 0x3d,
  0x39, 0x04, 0x09, 0x3e, 0x58, 0x2d, 0xc6, 0x3d, 0xff, 0x16, 0x7d, 0x3c,
  0x84, 0x34, 0xae, 0x3e, 0xc6, 0xf4, 0x48, 0x3e, 0xeb, 0x73, 0x0d, 0xbe,
  0x86, 0x9a, 0xbd, 0x3e, 0xd7, 0x07, 0xaf, 0xbe, 0xe9, 0x4c, 0x3f, 0x3e,
  0x39, 0xe6, 0x23, 0xbe, 0xb9, 0x32, 0x96, 0x3e, 0xe2, 0x62, 0xbb, 0xbe,
  0xc8, 0x38, 0x20, 0xbe, 0x93, 0xf2, 0xa9, 0xbe, 0xad, 0x36, 0x93, 0x3d,
  0x9a, 0x60, 0x77, 0xbe, 0xc9, 0x92, 0x42, 0x3e, 0xcf, 0x04, 0xd8, 0xbe,
  0x95, 0xdc, 0x1f, 0x3d, 0x58, 0xf6, 0x8b, 0x3d, 0x6b, 0xee, 0xfd, 0x3d,
  0x5d, 0x8f, 0x19, 0xbe, 0x97, 0xd7, 0x81, 0xbd, 0x9d, 0x7b, 0x28, 0x3e,
  0x91, 0x41, 0xb7, 0xbe, 0xec, 0xb3, 0xa8, 0xbd, 0xa5, 0x07, 0xcf, 0x3e,
  0xc7, 0xd7, 0xd1, 0xbc, 0x2b, 0x3a, 0xcd, 0x3e, 0xd2, 0x95, 0x53, 0xbe,
  0x4e, 0x02, 0xc1, 0x3e, 0xe6, 0xb8, 0x21, 0xbe, 0xe3, 0x90, 0x95, 0x3e,
  0xab, 0xfc, 0x40, 0xbe, 0x79, 0xa7, 0xf1, 0xbd, 0x5b, 0x3b, 0x95, 0x3e,
  0x7c, 0x49, 0x04, 0x3d, 0x33, 0x50, 0xaf, 0x3d, 0xee, 0xe4, 0x04, 0xbf,
  0xde, 0xe9, 0xf5, 0xbb, 0x8b, 0x9d, 0xb3, 0xbe, 0x69, 0x3f, 0x13, 0x3c,
  0x01, 0xe7, 0xd1, 0xbd, 0x8e, 0x30, 0xf7, 0x3d, 0x38, 0x4e, 0xeb, 0x3d,
  0x90, 0x05, 0x51, 0xbe, 0x5c, 0x6f, 0xa5, 0x3e, 0x89, 0xf9, 0x9c, 0xbe,
  0x88, 0x9c, 0x2b, 0xbe, 0xed, 0x3a, 0x63, 0x3d, 0xd1, 0xbd, 0x5a, 0x3e,
  0xd0, 0x4d, 0x8d, 0xbe, 0x7d, 0xec, 0xab, 0xbe, 0xc0, 0xb3, 0x72, 0x3d,
  0x74, 0x65, 0x3f, 0xbe, 0x99, 0x39, 0xa2, 0xbe, 0x5a, 0xc0, 0xfd, 0xbd,
  0x08, 0xe0, 0x3f, 0xbe, 0x7a, 0x1e, 0xd7, 0xbe, 0x67, 0xb0, 0x2f, 0xbe,
  0xf2, 0x3b, 0x00, 0xbf, 0x6a, 0x8b, 0xfb, 0xbd, 0x80, 0xf7, 0x82, 0xbe,
  0xca, 0x61, 0xc9, 0x3d, 0x12, 0xa2, 0xa5, 0xbe, 0xe7, 0xac, 0x31, 0xba,
  0x6b, 0xc0, 0x5c, 0x3d, 0x4e, 0x21, 0xf5, 0xbc, 0x13, 0xe1, 0x12, 0x3d,
  0xe8, 0xab, 0xf1, 0x3d, 0x2f, 0xb6, 0x99, 0x3c, 0x6e, 0x34, 0xde, 0xbe,
  0xc3, 0x28, 0xe8, 0xbd, 0xf4, 0x7a, 0xe0, 0xbe, 0x5f, 0x2b, 0xa3, 0x3d,
  0xd1, 0xaf, 0xb9, 0x3e, 0x60, 0x33, 0x81, 0xbe, 0x70, 0x97, 0x0f, 0xbe,
  0x60, 0xe2, 0xd9, 0x3e, 0xc1, 0x3b, 0x0e, 0xbe, 0xdb, 0x17, 0x7a, 0x3d,
  0xc1, 0x88, 0xd9, 0x3e, 0x57, 0x56, 0xbb, 0xbe, 0xbd, 0x7a, 0x83, 0xbd,
  0x02, 0x64, 0xaf, 0x3c, 0xaa, 0xcc, 0xa0, 0x3e, 0xb8, 0xac, 0xeb, 0xbc,
  0x23, 0xcc, 0x94, 0x3e, 0x9b, 0xe2, 0xd0, 0x3d, 0x1f, 0x0b, 0x55, 0xbe,
  0x80, 0x80, 0xde, 0x3c, 0x1f, 0xce, 0x80, 0x3c, 0x8c, 0x5b, 0x8b, 0x3e,
  0x84, 0x0b, 0x03, 0xbc, 0x92, 0x4d, 0xa8, 0x3e, 0xd5, 0x25, 0x8e, 0xbe,
  0xfe, 0xe5, 0xeb, 0xbd, 0x34, 0xc2, 0xd6, 0xbd, 0x2c, 0x60, 0x84, 0xbe,
  0xc4, 0x7d, 0xd2, 0x3d, 0x37, 0x93, 0xa2, 0xbe, 0x4a, 0x02, 0xe8, 0xbe,
  0x99, 0x3a, 0xef, 0xbc, 0xc3, 0x97, 0x3a, 0xbd, 0x77, 0x8e, 0x12, 0x3e,
  0xc2, 0x34, 0x9c, 0xbe, 0x19, 0xca, 0x8f, 0x3e, 0xc4, 0x6c, 0xde, 0x3c,
  0x1e, 0xab, 0x54, 0x3d, 0x71, 0xc2, 0xd3, 0x3d, 0x72, 0xc6, 0xc3, 0xbd,
  0x4b, 0xb7, 0xbb, 0x3d, 0xcb, 0xd4, 0xb0, 0xbe, 0xda, 0xef, 0x2a, 0x3e,
  0xf8, 0x32, 0xc0, 0xbe, 0x91, 0x0b, 0x2c, 0xbe, 0xe3, 0xcc, 0x13, 0x3e,
  0xf9, 0xb3, 0x72, 0xbe, 0x65, 0x25, 0x44, 0xbe, 0x6c, 0x03, 0x57, 0xbd,
  0x3a, 0x83, 0xba, 0xbe, 0xdb, 0xe3, 0x61, 0x3d, 0xbc, 0x0b, 0x7e, 0xbc,
  0x10, 0x91, 0x01, 0xbb, 0x68, 0x48, 0x2c, 0x3e, 0x68, 0xa6, 0x24, 0xbe,
  0xf3, 0x88, 0xb9, 0x3e, 0x31, 0x4e, 0x90, 0xbe, 0x68, 0xff, 0x42, 0xbe,
  0x47, 0x31, 0x35, 0x3e, 0x68, 0x51, 0x01, 0xbd, 0x6d, 0xf2, 0xec, 0x3d,
  0x51, 0x5d, 0x85, 0x3e, 0x96, 0x55, 0xad, 0xbe, 0x0a, 0x52, 0x2b, 0x3e,
  0x84, 0x21, 0x28, 0xbe, 0xa4, 0x5f, 0x0b, 0xbe, 0x85, 0x2b, 0x4d, 0x3e,
  0x22, 0xce, 0x2f, 0x3e, 0x92, 0xf2, 0x01, 0xbe, 0x92, 0x06, 0x62, 0x3d,
  0x99, 0x32, 0xc5, 0xbd, 0x4f, 0x28, 0x8b, 0xbe, 0x76, 0xd0, 0xd6, 0x3e,
  0x3f, 0x72, 0xa3, 0xbe, 0x53, 0xb2, 0x89, 0x3d, 0x54, 0xfc, 0xa9, 0xbd,
  0xe5, 0x17, 0x0c, 0xbc, 0xb1, 0xe6, 0xb8, 0x3e, 0xe7, 0xd4, 0x88, 0x3b,
  0x20, 0x2d, 0x4b, 0x3d, 0x8e, 0x05, 0x41, 0x3d, 0x68, 0x5a, 0x7c, 0xbd,
  0x3f, 0x3c, 0xb8, 0xbe, 0x6f, 0xdf, 0x9b, 0x3e, 0xab, 0xb3, 0x8d, 0xbe,
  0x0a, 0x76, 0xde, 0x3d, 0xcf, 0xd0, 0x10, 0xbd, 0xc3, 0x13, 0x88, 0xbd,
  0xac, 0x43, 0x95, 0x3e, 0x13, 0xeb, 0x16, 0xbd, 0x99, 0x2d, 0x70, 0xbe,
  0xf5, 0x9b, 0x7e, 0x3e, 0x6e, 0xc4, 0x10, 0xbe, 0x4b, 0x62, 0x35, 0xbe,
  0xba, 0x2c, 0x8e, 0xbe, 0x2b, 0x29, 0x54, 0x3d, 0xb9, 0x25, 0x7e, 0xbe,
  0xb7, 0x40, 0x92, 0x3e, 0xa0, 0x88, 0x82, 0xbe, 0x51, 0x53, 0xa0, 0x3e,
  0x75, 0xb2, 0x18, 0xbe, 0xa7, 0x36, 0x84, 0xbe, 0x1b, 0xbd, 0x48, 0x3e,
  0xdc, 0x8a, 0x85, 0xbc, 0x36, 0x22, 0x0b, 0x3e, 0x1d, 0x08, 0x32, 0x3e,
  0xca, 0x8e, 0x82, 0xbe, 0x1c, 0x11, 0x15, 0xbe, 0x2a, 0xf5, 0x23, 0x3e,
  0x11, 0x5e, 0x4c, 0xbe, 0x24, 0x0f, 0xf1, 0x3c, 0xa8, 0x34, 0xf7, 0x3d,
  0xc8, 0x39, 0xff, 0x3d, 0xb5, 0x79, 0x77, 0xbe, 0x33, 0x1c, 0x1a, 0x3e,
  0x6d, 0x38, 0xb1, 0x3e, 0x12, 0x17, 0x07, 0x3e, 0xcd, 0xe9, 0x03, 0x3e,
  0xa7, 0x18, 0x51, 0xbd, 0xce, 0x1e, 0x40, 0x3e, 0x77, 0xa0, 0x2f, 0xbc,
  0xb4, 0xb6, 0x99, 0x3e, 0xe7, 0x32, 0x0a, 0xbe, 0x12, 0xd8, 0x9c, 0x3e,
  0x2b, 0xd8, 0x09, 0xbe, 0x3c, 0x8a, 0x1c, 0xbe, 0xbb, 0xb4, 0x06, 0xbe,
  0xeb, 0x3a, 0x5f, 0x3e, 0x8d, 0xc3, 0xaa, 0x3e, 0xb3, 0x2e, 0xe4, 0x3d,
  0x8c, 0x55, 0x4b, 0x3d, 0xba, 0x77, 0x04, 0x3e, 0x8e, 0xe7, 0xa1, 0x3e,
  0x24, 0x13, 0x88, 0x3e, 0x4c, 0xfd, 0xa5, 0x3d, 0x7a, 0x52, 0x04, 0xbe,
  0x6a, 0xb4, 0x94, 0x3e, 0x99, 0xfd, 0xb9, 0x3e, 0xb0, 0x67, 0x13, 0xbe,
  0x32, 0x30, 0xbd, 0x3d, 0x61, 0xc5, 0x91, 0x3e, 0x62, 0xf5, 0x32, 0x3e,
  0x46, 0xe5, 0xaf, 0x3c, 0x27, 0x6b, 0x98, 0xbe, 0xa7, 0x4a, 0xc3, 0xbd,
  0xa1, 0xa7, 0x00, 0xbc, 0x01, 0xdd, 0x41, 0xbe, 0x73, 0x83, 0xc1, 0x3c,
  0x28, 0x69, 0xfb, 0xbc, 0x7f, 0x25, 0x13, 0x3e, 0x04, 0x70, 0x13, 0xbd,
  0x37, 0x6d, 0x3f, 0x3e, 0x86, 0xe3, 0x9f, 0x3d, 0x91, 0x6d, 0x05, 0x3e,
  0xe6, 0x47, 0x61, 0xbe, 0x8e, 0x69, 0x92, 0x3e, 0xc9, 0x4f, 0x30, 0xbe,
  0x03, 0x12, 0x0d, 0xbe, 0x0e, 0x67, 0x62, 0x3c, 0x8b, 0xb1, 0x8e, 0x3d,
  0x2e, 0x48, 0x87, 0x3e, 0x1d, 0x6f, 0x4b, 0x3e, 0x1c, 0x8c, 0x30, 0x3b,
  0x69, 0x29, 0xaf, 0xbe, 0xe0, 0x5c, 0x4b, 0xbe, 0xbd, 0xee, 0x93, 0x3e,
  0xbf, 0x1c, 0x72, 0xbe, 0xf4, 0x67, 0x2b, 0xbe, 0x9b, 0xe4, 0x84, 0x3a,
  0x82, 0x21, 0xe9, 0x3c, 0xb8, 0x29, 0xe2, 0x3d, 0xf5, 0x53, 0xac, 0xbe,
  0x6e, 0xc6, 0x4b, 0x3d, 0x62, 0x92, 0xb1, 0xbe, 0x47, 0xba, 0xa2, 0x3e,
  0x5f, 0xa3, 0xd5, 0xbd, 0x0f, 0x0e, 0x89, 0x3e, 0x2b, 0x84, 0x29, 0xbe,
  0x33, 0xcd, 0x1b, 0x3d, 0x34, 0x9d, 0x42, 0xbe, 0x17, 0x61, 0xb5, 0xbd,
  0xdc, 0x0b, 0x6e, 0x3e, 0xe7, 0x22, 0xa3, 0x3d, 0x11, 0xdb, 0xcb, 0xbe,
  0x05, 0xd6, 0x98, 0xbe, 0x5e, 0x8c, 0xc4, 0x3e, 0x65, 0x3b, 0x61, 0x3e,
  0xbe, 0x9b, 0x58, 0x3e, 0x63, 0x2f, 0x38, 0xbe, 0x12, 0x5a, 0x66, 0x3e,
  0x93, 0x68, 0x29, 0xbe, 0x37, 0x67, 0x71, 0x3e, 0xd1, 0x33, 0x81, 0x3e,
  0xe9, 0x73, 0xd3, 0x3c, 0x1e, 0x24, 0x39, 0xbd, 0x11, 0xfd, 0x7f, 0x3e,
  0xeb, 0x6d, 0x91, 0xbd, 0x88, 0x34, 0xe6, 0x3e, 0xb9, 0x86, 0xb4, 0xbc,
  0x90, 0x8a, 0x8d, 0xbe, 0x6b, 0xd4, 0x0d, 0xbd, 0x9d, 0x8a, 0x38, 0x3d,
  0x18, 0x68, 0x90, 0x3d, 0xcf, 0x65, 0x4e, 0xbe, 0x5e, 0x58, 0xea, 0x3d,
  0x0f, 0xc2, 0x9b, 0xbe, 0xf5, 0xf7, 0x81, 0xbe, 0x5b, 0xf5, 0xd6, 0x3d,
  0x02, 0x4c, 0x32, 0xbe, 0xf6, 0x11, 0x1d, 0x3e, 0xd9, 0xf2, 0xa6, 0xbd,
  0xb8, 0x09, 0xae, 0xbe, 0xad, 0x71, 0x1d, 0xbe, 0xe7, 0x6b, 0x84, 0x3d,
  0x1b, 0xad, 0x43, 0xbe, 0x59, 0xc7, 0x86, 0xbe, 0x1b, 0x7f, 0xe8, 0xbd,
  0x77, 0x1e, 0x19, 0x3d, 0x05, 0xd5, 0x62, 0x3e, 0x39, 0xa2, 0xb9, 0xbe,
  0xf1, 0x1f, 0x2f, 0x3e, 0xf6, 0xf8, 0x08, 0x3e, 0x6c, 0xd7, 0xc7, 0x3e,
  0x20, 0xcb, 0xb9, 0x3e, 0x2a, 0x99, 0x01, 0x08, 0x14, 0x10, 0x01, 0x42,
  0x41, 0x53, 0x74, 0x61, 0x74, 0x65, 0x66, 0x75, 0x6c, 0x50, 0x61, 0x72,
  0x74, 0x69, 0x74, 0x69, 0x6f, 0x6e, 0x65, 0x64, 0x43, 0x61, 0x6c, 0x6c,
  0x2f, 0x73, 0x65, 0x71, 0x75, 0x65, 0x6e, 0x74, 0x69, 0x61, 0x6c, 0x2f,
  0x64, 0x65, 0x6e, 0x73, 0x65, 0x2f, 0x42, 0x69, 0x61, 0x73, 0x41, 0x64,
  0x64, 0x2f, 0x52, 0x65, 0x61, 0x64, 0x56, 0x61, 0x72, 0x69, 0x61, 0x62,
  0x6c, 0x65, 0x4f, 0x70, 0x3a, 0x30, 0x4a, 0x50, 0x82, 0x4f, 0x98, 0x3d,
  0x63, 0x9e, 0xf5, 0xbc, 0x0c, 0x79, 0x41, 0x3d, 0xb3, 0x02, 0x2e, 0x3e,
  0x77, 0x14, 0x97, 0x3a, 0x30, 0x02, 0x41, 0x3e, 0xd3, 0xc7, 0x29, 0x3e,
  0x85, 0x94, 0x40, 0xbd, 0xc4, 0xb5, 0x15, 0xbe, 0xe3, 0x89, 0xf6, 0x3d,
  0xdb, 0x0f, 0x10, 0x3e, 0xda, 0xca, 0x45, 0xbe, 0x97, 0xc0, 0x0f, 0xbd,
  0x69, 0x13, 0x03, 0xbe, 0xd6, 0x62, 0xa9, 0xbc, 0xe0, 0x67, 0xb9, 0xbd,
  0x50, 0x1e, 0x85, 0x3e, 0x75, 0x6b, 0xf9, 0x3d, 0x9e, 0x55, 0x2c, 0x3e,
  0xa4, 0x60, 0xc5, 0x3d, 0x52, 0x1f, 0x63, 0x6f, 0x6e, 0x76, 0x65, 0x72,
  0x74, 0x65, 0x64, 0x20, 0x66, 0x72, 0x6f, 0x6d, 0x20, 0x2f, 0x74, 0x6d,
  0x70, 0x2f, 0x73, 0x61, 0x76, 0x65, 0x64, 0x5f, 0x6d, 0x6f, 0x64, 0x65,
  0x6c, 0x5a, 0x13, 0x0a, 0x01, 0x78, 0x12, 0x0e, 0x0a, 0x0c, 0x08, 0x01,
  0x12, 0x08, 0x0a, 0x02, 0x08, 0x01, 0x0a, 0x02, 0x08, 0x21, 0x62, 0x1a,
  0x0a, 0x08, 0x6f, 0x75, 0x74, 0x70, 0x75, 0x74, 0x5f, 0x30, 0x12, 0x0e,
  0x0a, 0x0c, 0x08, 0x01, 0x12, 0x08, 0x0a, 0x02, 0x08, 0x01, 0x0a, 0x02,
  0x08, 0x02, 0x42, 0x02, 0x10, 0x09
};
unsigned int trained_onnx_len = 5694;
const char *trained_onnx_hash = "9fc75554128a975c2de76cf1205135c52ffabe05";
